memory_initialization_radix = 2;
memory_initialization_vector =
00111110,
00110110,
11110110,
01000001,
11000010,
01001010,
00011111,
00001101,
11101001,
11011000,
00010000,
11100010,
00011100,
00101001,
11101011,
00011110,
00101011,
11110110,
11111110,
11011111,
10110011,
10000110,
00010111,
00001111,
00011011,
11111110,
11101010,
00000000,
00000000,
00001000,
11111001,
00001000,
11111111,
11111000,
00001101,
11111111,
11111101,
00101101,
00001100,
00100011,
00000000,
00000110,
00100100,
00111000,
00000011,
00011101,
00000010,
00111010,
00110010,
11111000,
00010110,
00001100,
00000110,
00000000,
00001111,
01000111,
01000010,
00001111,
00110010,
00010011,
00000111,
00011001,
11111110,
11100110,
11010001,
11100001,
11011011,
00000011,
11110011,
11001100,
11011011,
00100001,
00001110,
11111011,
00001011,
00000000,
00001101,
11101001,
11111111,
00010110,
00011011,
11110111,
11101010,
11101101,
11111000,
11101100,
00010000,
11010001,
00000001,
00000101,
11001111;
