memory_initialization_radix = 2;
memory_initialization_vector =
00111110,
00110110,
11110110,
01000010,
11000010,
01001011,
00100000,
00001110,
11101001,
11011000,
00010001,
11100001,
00011100,
00101010,
11101011,
00011111,
00101011,
11110101,
11111110,
11011110,
10110010,
10000110,
00011000,
00001111,
00011011,
11111101,
11101001,
00000000,
00000001,
00001001,
11111000,
00001000,
11111111,
11110111,
00001101,
11111110,
11111101,
00101110,
00001100,
00100011,
00000000,
00000110,
00100100,
00111000,
00000011,
00011110,
00000010,
00111010,
00110011,
11111000,
00010110,
00001101,
00000110,
00000000,
00001111,
01001000,
01000010,
00010000,
00110010,
00010100,
00000111,
00011010,
11111101,
11100101,
11010000,
11100000,
11011011,
00000011,
11110011,
11001011,
11011011,
00100001,
00001110,
11111011,
00001100,
11111111,
00001110,
11101000,
11111110,
00010111,
00011011,
11110110,
11101001,
11101100,
11111000,
11101011,
00010001,
11010000,
00000001,
00000110,
11001110;
