0000111101010100
0000000011110010
0000011101011100
0000111000100100
1111010000001001
1111010101111001
1111111100101001
1111111100000101
1111110100000100
1111110111000110
1111111110110110
0000001000100011
0000001000001010
0000001000100111
0000000111011000
0000001100000001
1111111110000011
0000001100101010
0000000101001111
0000001011011111
0000001000010111
1111100111010010
0000001001101011
0000010011110111
0000001100100111
0000001010111011
0000001000000011
0000000000010111
0000000100110001
0000000101001110
1111111111011010
1111111110101000
1111110111011101
1111111101110111
1111110110001101
1111111001110001
1111111101001001
0000000001110010
1111011110010011
1111101010101100
1111101110101001
0000000001011100
0000001101111101
0000010101101001
0000010010001000
0000001001011100
0000001001011101
0000001000011101
0000001010100101
1111111110101000
0000000110010100
0000000101011111
0000001001001111
0000111111000011
0000011101010010
0000011010010111
1111101001101001
1111110010000111
1111111010011110
0000001011111111
0000000001010001
1111110100110000
1111110110111100
1111111011100000
1111111111100011
1111110111111110
1111111011101011
1111111000101111
0000000000000100
0000101100101111
0000010010101100
1111110000111010
0000010001011110
0000000010110001
1111111111010000
0000000001000011
1111111101100110
0000000001010100
0000000100110110
1111111101000111
1111111010011011
1111111011010111
0000000010101001
0000000011011010
1111111011001001
0000001101100011
1111001100101010
1111011011010011
0000101010100111
0000111100101000
0000110110111000
00000000
00000000
00000000
00000000
00000000
00000000
00000000
00000000
00000000
00000000
00000000
00000000
00000000
00000000
00000000
00000000
00000000
00000000
00000000
00000000
00000000
00000000
00000000
00000000
00000000
00000000
00000000
00000000
00000000
00000000
00000000
00000000
00000000
00000000
00000000
00000000
00000000
00000000
00000000
00000000
00000000
00000000
00000000
00000000
00000000
00000000
00000000
00000000
00000000
00000000
00000000
00000000
00000000
00000000
00000000
00000000
00000000
00000000
00000000
00000000
00000000
00000000
00000000
00000000
00000000
00000000
00000000
00000000
00000000
00000000
00000000
00000000
00000000
00000000
00000000
00000000
00000000
00000000
00000000
00000000
00000000
00000000
00000000
00000000
00000000
00000000
00000000
00000000
00000000
00000000
00000000
00000000
00000000
00000000
00000000
00000000
00000000
00000000
00000000
00000000
00000000
00000000
00000000
00000000
00000000
00000000
00000000
00000000
00000000
00000000
00000000
00000000
00000000
00000000
00000000
00000000
00000000
00000000
00000000
00000000
00000000
00000000
00000000
00000000
00000000
00000000
00000000
00000000
00000000
00000000
00000000
00000000
00000000
00000000
00000000
00000000
00000000
00000000
00000000
00000000
00000000
00000000
00000000
00000000
00000000
00000000
00000000
00000000
00000000
00000000
00000000
00000000
00000000
00000000
00000000
00000000
00000000
00000000
00000000
00000000
00000000
00000000
00000000
00000000
00000000
00000000
00000000
00000000
00000000
00000000
00000000
00000000
00000000
00000000
00000000
00000000
00000000
00000000
00000000
00000000
00000000
00000000
00000000
00000000
00000000
00000000
00000000
00000000
00000000
00000000
00000000
00000000
00000000
00000000
00000000
00000000
00000000
00000000
00000000
00000000
00000000
00000000
00000000
00000000
00000000
00000000
00000000
00000000
00000000
00000000
00000000
00000000
00000000
00000000
00000000
00000000
00000000
00000000
00000000
00000000
00000000
00000000
00000000
00000000
00000000
00000000
00000000
00000000
00000000
00000000
00000000
00000000
00000000
00000000
00000000
00000000
00000000
00000000
00000000
00000000
00000000
00000000
00000000
00000000
00000000
00000000
00000000
00000000
00000000
00000000
00000000
00000000
00000000
00000000
00000000