0000110110001010
0000000010111100
1111110010111110
0000000111111110
1111000100101101
0000101110111111
0000010011000001
0000010110010101
1111101110111111
1111111110001001
1111110111000001
0000001101111000
1111110111100100
0000001111011110
0000000101110110
1111111101011010
0000000001100101
1111110010011010
0000000101110110
1111101010111000
0000001001000010
1111000011110011
0000000110010010
0000011000001000
0000001001100111
1111111000000111
1111101101110110
1111110010010100
1111110000001100
1111110111011011
1111111000001010
1111111101110110
1111111010000010
0000001000111101
0000010011100010
0000010110001100
0000100100010100
1111101010101100
0000000100111110
0000011001111111
0000001101010000
0000000100010101
0000000111101101
0000001110010011
0000001100011100
0000010100110011
0000010111010001
0000000001110001
1111111011101111
1111101111000100
1111110101010001
1111011001000100
1111010110111111
1111110000100111
1111111000011011
1111111100110011
1111111110101110
1111111101000110
1111111101101111
1111111111110111
0000000010001011
1111111111100111
1111111101011000
1111110101110011
1111101111011011
1111101111101000
1111101001111111
1111101001011011
1111100111010111
0000001000010110
0000101001011001
0000010011010111
0000011110111101
0000001001101000
0000001011101000
1111110111100110
0000000110100100
1111111100010110
1111111001011001
0000000010101001
0000000100110101
1111110111111111
1111100111100111
1111111010001111
1111111010001101
1111110011101100
0000101010110110
1111001010111101
1111001111011011
1111111010110000
0000100000001101
00000000
00000000
00000000
00000000
00000000
00000000
00000000
00000000
00000000
00000000
00000000
00000000
00000000
00000000
00000000
00000000
00000000
00000000
00000000
00000000
00000000
00000000
00000000
00000000
00000000
00000000
00000000
00000000
00000000
00000000
00000000
00000000
00000000
00000000
00000000
00000000
00000000
00000000
00000000
00000000
00000000
00000000
00000000
00000000
00000000
00000000
00000000
00000000
00000000
00000000
00000000
00000000
00000000
00000000
00000000
00000000
00000000
00000000
00000000
00000000
00000000
00000000
00000000
00000000
00000000
00000000
00000000
00000000
00000000
00000000
00000000
00000000
00000000
00000000
00000000
00000000
00000000
00000000
00000000
00000000
00000000
00000000
00000000
00000000
00000000
00000000
00000000
00000000
00000000
00000000
00000000
00000000
00000000
00000000
00000000
00000000
00000000
00000000
00000000
00000000
00000000
00000000
00000000
00000000
00000000
00000000
00000000
00000000
00000000
00000000
00000000
00000000
00000000
00000000
00000000
00000000
00000000
00000000
00000000
00000000
00000000
00000000
00000000
00000000
00000000
00000000
00000000
00000000
00000000
00000000
00000000
00000000
00000000
00000000
00000000
00000000
00000000
00000000
00000000
00000000
00000000
00000000
00000000
00000000
00000000
00000000
00000000
00000000
00000000
00000000
00000000
00000000
00000000
00000000
00000000
00000000
00000000
00000000
00000000
00000000
00000000
00000000
00000000
00000000
00000000
00000000
00000000
00000000
00000000
00000000
00000000
00000000
00000000
00000000
00000000
00000000
00000000
00000000
00000000
00000000
00000000
00000000
00000000
00000000
00000000
00000000
00000000
00000000
00000000
00000000
00000000
00000000
00000000
00000000
00000000
00000000
00000000
00000000
00000000
00000000
00000000
00000000
00000000
00000000
00000000
00000000
00000000
00000000
00000000
00000000
00000000
00000000
00000000
00000000
00000000
00000000
00000000
00000000
00000000
00000000
00000000
00000000
00000000
00000000
00000000
00000000
00000000
00000000
00000000
00000000
00000000
00000000
00000000
00000000
00000000
00000000
00000000
00000000
00000000
00000000
00000000
00000000
00000000
00000000
00000000
00000000
00000000
00000000
00000000
00000000
00000000
00000000
00000000
00000000
00000000