1101010000100101
1111111010101101
0000001001111101
1111111010111111
0010101010100110
0001100010111100
0000111101110010
0000001110110111
1111100000000010
1110111010011001
1111000011000001
1111100010110100
1111110100010010
0001111000000001
1101111100001110
1111100011110101
1111101010110111
1111101001101000
1111101010110100
1101110111000111
1101111100010111
0001101111111111
1110001111101011
1111011101111001
1111100101001110
1111111110100101
0000000001011100
1111111110001100
1111111011100011
0001001111010101
0000000110101101
1111000000000010
0000000000101010
1111011110100010
0000000100100000
0000001000011111
0000000111000100
1111111011011010
0000100111011001
1111111110011011
1111110010011110
1111111010100100
0000000100011110
0000000111001101
0000000100010101
1110100001110000
0000001001011101
0000010111110010
0000011110011000
0000001111000101
0000010010101100
1111111101010000
1111110111100011
0010110000111110
1111010101111001
1111010110111010
1111001111000111
1111101111001111
0000000001100110
0000000000001101
1111110110110000
1111011110100111
0000000100011001
0000000001010111
0000100010100101
1111101111111000
0000011101101110
1111110111110110
0000000110010100
1110011010000101
1110111110001011
1111101011001011
0000100110001000
0001000000101000
0000111000110010
1111111101000101
1111110101100110
0000001110100111
0001110110011000
0000111010001100
1111000110100010
0000001001111001
0000001001111110
0010000001010010
0010011001010000
0000010000011111
1101111000101011
1110110111011111
1110010010101001
0001001010001100
1101111000100010
00000000
00000000
00000000
00000000
00000000
00000000
00000000
00000000
00000000
00000000
00000000
00000000
00000000
00000000
00000000
00000000
00000000
00000000
00000000
00000000
00000000
00000000
00000000
00000000
00000000
00000000
00000000
00000000
00000000
00000000
00000000
00000000
00000000
00000000
00000000
00000000
00000000
00000000
00000000
00000000
00000000
00000000
00000000
00000000
00000000
00000000
00000000
00000000
00000000
00000000
00000000
00000000
00000000
00000000
00000000
00000000
00000000
00000000
00000000
00000000
00000000
00000000
00000000
00000000
00000000
00000000
00000000
00000000
00000000
00000000
00000000
00000000
00000000
00000000
00000000
00000000
00000000
00000000
00000000
00000000
00000000
00000000
00000000
00000000
00000000
00000000
00000000
00000000
00000000
00000000
00000000
00000000
00000000
00000000
00000000
00000000
00000000
00000000
00000000
00000000
00000000
00000000
00000000
00000000
00000000
00000000
00000000
00000000
00000000
00000000
00000000
00000000
00000000
00000000
00000000
00000000
00000000
00000000
00000000
00000000
00000000
00000000
00000000
00000000
00000000
00000000
00000000
00000000
00000000
00000000
00000000
00000000
00000000
00000000
00000000
00000000
00000000
00000000
00000000
00000000
00000000
00000000
00000000
00000000
00000000
00000000
00000000
00000000
00000000
00000000
00000000
00000000
00000000
00000000
00000000
00000000
00000000
00000000
00000000
00000000
00000000
00000000
00000000
00000000
00000000
00000000
00000000
00000000
00000000
00000000
00000000
00000000
00000000
00000000
00000000
00000000
00000000
00000000
00000000
00000000
00000000
00000000
00000000
00000000
00000000
00000000
00000000
00000000
00000000
00000000
00000000
00000000
00000000
00000000
00000000
00000000
00000000
00000000
00000000
00000000
00000000
00000000
00000000
00000000
00000000
00000000
00000000
00000000
00000000
00000000
00000000
00000000
00000000
00000000
00000000
00000000
00000000
00000000
00000000
00000000
00000000
00000000
00000000
00000000
00000000
00000000
00000000
00000000
00000000
00000000
00000000
00000000
00000000
00000000
00000000
00000000
00000000
00000000
00000000
00000000
00000000
00000000
00000000
00000000
00000000
00000000
00000000
00000000
00000000
00000000
00000000
00000000
00000000
00000000
00000000