0000011000001111
1111100110110010
0000000111010111
1111010010001001
1111101000000101
1110101011011100
0000100011101110
0000100110011001
0000000010000111
1111111101001111
0000000000001110
1111111110100111
0000000011100110
0000000010010001
0000000011001010
0000001000111011
0000011010010100
0000001101011101
0000010010011110
0000001110101100
0000000011001001
0000001110101011
1111101111100101
1111110101010011
1111111000001010
1111111111000011
1111111100100011
1111111010111101
1111110110100101
1111110011010001
1111110011100100
1111111010010111
0000000011011111
1111111011010001
0000001000000100
0000001110010000
0000101000100011
0010010001111010
1111001100010001
1110111111001101
1111110111000110
1111111110010111
1111111101111001
0000000011001000
0000000000011110
0000000100000010
0000000010000001
1111111110110111
1111110100000011
1111111001101011
1111111011100111
0000000000011110
0000101000010110
1111110110111111
1111111100100010
0000011111000111
0000000110010011
0000000110001101
0000000000111001
1111110111111111
1111110110011011
1111101110110000
1111110001110001
1111110111000101
1111111000110001
1111110011100111
1111101110001110
1111100101101001
1111101011101110
1111111100100001
1111011000000001
1111111001101010
0000001010111101
0000001001111110
0000000101000011
0000000010000111
0000000110111101
0000000110001101
0000000101010010
0000001110100011
0000010100101000
0000000011100101
1111111100010011
1111110011011101
0000100011010110
1111010111111001
0001011111001111
1111010010111011
0001011110000100
0000111001001011
1111010001001010
00000000
00000000
00000000
00000000
00000000
00000000
00000000
00000000
00000000
00000000
00000000
00000000
00000000
00000000
00000000
00000000
00000000
00000000
00000000
00000000
00000000
00000000
00000000
00000000
00000000
00000000
00000000
00000000
00000000
00000000
00000000
00000000
00000000
00000000
00000000
00000000
00000000
00000000
00000000
00000000
00000000
00000000
00000000
00000000
00000000
00000000
00000000
00000000
00000000
00000000
00000000
00000000
00000000
00000000
00000000
00000000
00000000
00000000
00000000
00000000
00000000
00000000
00000000
00000000
00000000
00000000
00000000
00000000
00000000
00000000
00000000
00000000
00000000
00000000
00000000
00000000
00000000
00000000
00000000
00000000
00000000
00000000
00000000
00000000
00000000
00000000
00000000
00000000
00000000
00000000
00000000
00000000
00000000
00000000
00000000
00000000
00000000
00000000
00000000
00000000
00000000
00000000
00000000
00000000
00000000
00000000
00000000
00000000
00000000
00000000
00000000
00000000
00000000
00000000
00000000
00000000
00000000
00000000
00000000
00000000
00000000
00000000
00000000
00000000
00000000
00000000
00000000
00000000
00000000
00000000
00000000
00000000
00000000
00000000
00000000
00000000
00000000
00000000
00000000
00000000
00000000
00000000
00000000
00000000
00000000
00000000
00000000
00000000
00000000
00000000
00000000
00000000
00000000
00000000
00000000
00000000
00000000
00000000
00000000
00000000
00000000
00000000
00000000
00000000
00000000
00000000
00000000
00000000
00000000
00000000
00000000
00000000
00000000
00000000
00000000
00000000
00000000
00000000
00000000
00000000
00000000
00000000
00000000
00000000
00000000
00000000
00000000
00000000
00000000
00000000
00000000
00000000
00000000
00000000
00000000
00000000
00000000
00000000
00000000
00000000
00000000
00000000
00000000
00000000
00000000
00000000
00000000
00000000
00000000
00000000
00000000
00000000
00000000
00000000
00000000
00000000
00000000
00000000
00000000
00000000
00000000
00000000
00000000
00000000
00000000
00000000
00000000
00000000
00000000
00000000
00000000
00000000
00000000
00000000
00000000
00000000
00000000
00000000
00000000
00000000
00000000
00000000
00000000
00000000
00000000
00000000
00000000
00000000
00000000
00000000
00000000
00000000
00000000
00000000
00000000